unsigned char models_model_no_quant_tflite[] = {
  0x1c, 0x00, 0x00, 0x00, 0x54, 0x46, 0x4c, 0x33, 0x14, 0x00, 0x20, 0x00,
  0x1c, 0x00, 0x18, 0x00, 0x14, 0x00, 0x10, 0x00, 0x0c, 0x00, 0x00, 0x00,
  0x08, 0x00, 0x04, 0x00, 0x14, 0x00, 0x00, 0x00, 0x1c, 0x00, 0x00, 0x00,
  0x98, 0x00, 0x00, 0x00, 0xf0, 0x00, 0x00, 0x00, 0x14, 0x07, 0x00, 0x00,
  0x24, 0x07, 0x00, 0x00, 0x14, 0x0c, 0x00, 0x00, 0x03, 0x00, 0x00, 0x00,
  0x01, 0x00, 0x00, 0x00, 0x10, 0x00, 0x00, 0x00, 0x00, 0x00, 0x0a, 0x00,
  0x10, 0x00, 0x0c, 0x00, 0x08, 0x00, 0x04, 0x00, 0x0a, 0x00, 0x00, 0x00,
  0x0c, 0x00, 0x00, 0x00, 0x1c, 0x00, 0x00, 0x00, 0x3c, 0x00, 0x00, 0x00,
  0x0f, 0x00, 0x00, 0x00, 0x73, 0x65, 0x72, 0x76, 0x69, 0x6e, 0x67, 0x5f,
  0x64, 0x65, 0x66, 0x61, 0x75, 0x6c, 0x74, 0x00, 0x01, 0x00, 0x00, 0x00,
  0x04, 0x00, 0x00, 0x00, 0x90, 0xff, 0xff, 0xff, 0x09, 0x00, 0x00, 0x00,
  0x04, 0x00, 0x00, 0x00, 0x08, 0x00, 0x00, 0x00, 0x6f, 0x75, 0x74, 0x70,
  0x75, 0x74, 0x5f, 0x30, 0x00, 0x00, 0x00, 0x00, 0x01, 0x00, 0x00, 0x00,
  0x04, 0x00, 0x00, 0x00, 0xba, 0xf9, 0xff, 0xff, 0x04, 0x00, 0x00, 0x00,
  0x0d, 0x00, 0x00, 0x00, 0x69, 0x6e, 0x70, 0x75, 0x74, 0x5f, 0x6c, 0x61,
  0x79, 0x65, 0x72, 0x5f, 0x31, 0x00, 0x00, 0x00, 0x02, 0x00, 0x00, 0x00,
  0x34, 0x00, 0x00, 0x00, 0x04, 0x00, 0x00, 0x00, 0xdc, 0xff, 0xff, 0xff,
  0x0c, 0x00, 0x00, 0x00, 0x04, 0x00, 0x00, 0x00, 0x13, 0x00, 0x00, 0x00,
  0x43, 0x4f, 0x4e, 0x56, 0x45, 0x52, 0x53, 0x49, 0x4f, 0x4e, 0x5f, 0x4d,
  0x45, 0x54, 0x41, 0x44, 0x41, 0x54, 0x41, 0x00, 0x08, 0x00, 0x0c, 0x00,
  0x08, 0x00, 0x04, 0x00, 0x08, 0x00, 0x00, 0x00, 0x0b, 0x00, 0x00, 0x00,
  0x04, 0x00, 0x00, 0x00, 0x13, 0x00, 0x00, 0x00, 0x6d, 0x69, 0x6e, 0x5f,
  0x72, 0x75, 0x6e, 0x74, 0x69, 0x6d, 0x65, 0x5f, 0x76, 0x65, 0x72, 0x73,
  0x69, 0x6f, 0x6e, 0x00, 0x0d, 0x00, 0x00, 0x00, 0x20, 0x06, 0x00, 0x00,
  0x18, 0x06, 0x00, 0x00, 0xc8, 0x05, 0x00, 0x00, 0xb0, 0x01, 0x00, 0x00,
  0x9c, 0x01, 0x00, 0x00, 0x4c, 0x01, 0x00, 0x00, 0xfc, 0x00, 0x00, 0x00,
  0xac, 0x00, 0x00, 0x00, 0xa4, 0x00, 0x00, 0x00, 0x9c, 0x00, 0x00, 0x00,
  0x94, 0x00, 0x00, 0x00, 0x74, 0x00, 0x00, 0x00, 0x04, 0x00, 0x00, 0x00,
  0x6a, 0xfa, 0xff, 0xff, 0x04, 0x00, 0x00, 0x00, 0x60, 0x00, 0x00, 0x00,
  0x10, 0x00, 0x00, 0x00, 0x00, 0x00, 0x00, 0x00, 0x08, 0x00, 0x0e, 0x00,
  0x08, 0x00, 0x04, 0x00, 0x08, 0x00, 0x00, 0x00, 0x10, 0x00, 0x00, 0x00,
  0x24, 0x00, 0x00, 0x00, 0x00, 0x00, 0x06, 0x00, 0x08, 0x00, 0x04, 0x00,
  0x06, 0x00, 0x00, 0x00, 0x04, 0x00, 0x00, 0x00, 0x00, 0x00, 0x00, 0x00,
  0x0c, 0x00, 0x18, 0x00, 0x14, 0x00, 0x10, 0x00, 0x0c, 0x00, 0x04, 0x00,
  0x0c, 0x00, 0x00, 0x00, 0xec, 0xb7, 0xa8, 0x9a, 0xd0, 0xf4, 0x0a, 0xe3,
  0x02, 0x00, 0x00, 0x00, 0x02, 0x00, 0x00, 0x00, 0x04, 0x00, 0x00, 0x00,
  0x06, 0x00, 0x00, 0x00, 0x32, 0x2e, 0x31, 0x39, 0x2e, 0x30, 0x00, 0x00,
  0xd6, 0xfa, 0xff, 0xff, 0x04, 0x00, 0x00, 0x00, 0x10, 0x00, 0x00, 0x00,
  0x31, 0x2e, 0x35, 0x2e, 0x30, 0x00, 0x00, 0x00, 0x00, 0x00, 0x00, 0x00,
  0x00, 0x00, 0x00, 0x00, 0xc8, 0xf5, 0xff, 0xff, 0xcc, 0xf5, 0xff, 0xff,
  0xd0, 0xf5, 0xff, 0xff, 0xfe, 0xfa, 0xff, 0xff, 0x04, 0x00, 0x00, 0x00,
  0x40, 0x00, 0x00, 0x00, 0xcb, 0x2f, 0x17, 0xbf, 0x00, 0x6e, 0x10, 0x3e,
  0xaf, 0x79, 0xcc, 0x3d, 0x61, 0xbc, 0x06, 0x3f, 0x5e, 0x3f, 0xad, 0xbe,
  0x98, 0xde, 0xd8, 0xbe, 0x92, 0x64, 0x96, 0xbc, 0xe9, 0x07, 0xe1, 0x3e,
  0x82, 0xf4, 0xbc, 0xbe, 0xa9, 0xfa, 0x83, 0xbd, 0x60, 0x9b, 0x78, 0xbd,
  0x72, 0x7a, 0xdb, 0x3e, 0xe4, 0xb1, 0xd9, 0xbe, 0xd7, 0x0a, 0x83, 0xbd,
  0x40, 0x2d, 0xb4, 0xbd, 0x68, 0x93, 0x07, 0xbf, 0x4a, 0xfb, 0xff, 0xff,
  0x04, 0x00, 0x00, 0x00, 0x40, 0x00, 0x00, 0x00, 0x00, 0x00, 0x00, 0x00,
  0x3e, 0x47, 0xa3, 0x3e, 0x2a, 0xba, 0xbc, 0xbe, 0x92, 0x28, 0xf0, 0xbe,
  0x00, 0x00, 0x00, 0x00, 0x00, 0x00, 0x00, 0x00, 0x02, 0x8e, 0xc6, 0x3e,
  0xc5, 0x7d, 0x03, 0xbe, 0x00, 0x00, 0x00, 0x00, 0xe1, 0x0b, 0xaf, 0x3e,
  0x00, 0x00, 0x00, 0x00, 0xb9, 0x11, 0xb7, 0xbe, 0x00, 0x00, 0x00, 0x00,
  0xf5, 0xb8, 0xb1, 0x3e, 0x00, 0x00, 0x00, 0x00, 0x00, 0x00, 0x00, 0x00,
  0x96, 0xfb, 0xff, 0xff, 0x04, 0x00, 0x00, 0x00, 0x40, 0x00, 0x00, 0x00,
  0x00, 0x00, 0x00, 0x00, 0xa2, 0x40, 0xcc, 0xbb, 0x86, 0x92, 0x87, 0x3e,
  0x80, 0xd8, 0xca, 0xbe, 0x5f, 0xc6, 0x99, 0x3e, 0xe1, 0x4d, 0xd9, 0x3e,
  0x19, 0x23, 0x89, 0x3e, 0x66, 0x38, 0xc8, 0x3e, 0x45, 0xbf, 0x9e, 0x3e,
  0x7c, 0x8c, 0xf2, 0xbb, 0x06, 0x78, 0xc6, 0x3e, 0xb6, 0xfb, 0x8e, 0xbe,
  0xf0, 0x5d, 0xa1, 0x3e, 0xe1, 0xcf, 0x87, 0x3e, 0xa3, 0x25, 0xb0, 0xbe,
  0xba, 0x28, 0xd3, 0x3e, 0xe2, 0xfb, 0xff, 0xff, 0x04, 0x00, 0x00, 0x00,
  0x04, 0x00, 0x00, 0x00, 0xe4, 0x1a, 0x8b, 0xbe, 0xf2, 0xfb, 0xff, 0xff,
  0x04, 0x00, 0x00, 0x00, 0x00, 0x04, 0x00, 0x00, 0x87, 0x98, 0xae, 0x3e,
  0x3e, 0xdb, 0x39, 0xbe, 0xe4, 0x80, 0xc8, 0xbd, 0x3c, 0x81, 0x85, 0xbe,
  0x4c, 0x8e, 0x13, 0xbe, 0x05, 0x5e, 0xc5, 0x3e, 0x1c, 0x90, 0xbf, 0xbe,
  0xbc, 0x36, 0xa3, 0xbe, 0xa6, 0x7d, 0x90, 0xbe, 0x44, 0x42, 0x94, 0xbd,
  0x6f, 0x2d, 0x75, 0xbe, 0xb1, 0xc9, 0x3b, 0xbe, 0xec, 0xd0, 0xaa, 0xbe,
  0x36, 0x34, 0x6d, 0xbe, 0x4e, 0x9e, 0x96, 0xbe, 0x8c, 0xb8, 0x33, 0xbe,
  0xbd, 0xff, 0x55, 0xbe, 0x76, 0x4b, 0xbd, 0xbd, 0xc8, 0x11, 0x8b, 0x3e,
  0x67, 0x30, 0x9b, 0xbd, 0x80, 0x69, 0xdf, 0xbd, 0x80, 0xef, 0x6f, 0xbb,
  0x57, 0xa1, 0x9e, 0xbe, 0x7d, 0x2b, 0x32, 0x3e, 0x01, 0x7d, 0x81, 0x3e,
  0x0e, 0xa2, 0xfe, 0xbd, 0xcd, 0xfc, 0xd2, 0xbe, 0xe3, 0x6e, 0x65, 0xbd,
  0x9c, 0x87, 0x00, 0xbe, 0x93, 0x67, 0x16, 0x3b, 0x48, 0xd2, 0x02, 0xbe,
  0x14, 0x60, 0x8d, 0xbe, 0xd4, 0xbe, 0xa9, 0xbe, 0x64, 0x85, 0xd2, 0x3e,
  0xd9, 0x64, 0xe8, 0xbe, 0x32, 0xdd, 0xc3, 0xbd, 0x4e, 0xef, 0x05, 0x3e,
  0xb6, 0xa1, 0x66, 0x3e, 0x99, 0x9b, 0x3b, 0xbd, 0xe1, 0x77, 0x5c, 0x3e,
  0x7d, 0x2e, 0xc9, 0x3e, 0x7f, 0xbb, 0xd5, 0x3e, 0x04, 0xdf, 0x2b, 0xbe,
  0x9a, 0x45, 0xc0, 0x3d, 0x9d, 0x7a, 0xc3, 0xbe, 0xe6, 0x1a, 0x86, 0x3d,
  0x12, 0xf9, 0xd6, 0xbe, 0xf7, 0x24, 0xd6, 0x3e, 0xd4, 0x17, 0xba, 0x3d,
  0x72, 0xe5, 0xae, 0xbe, 0x07, 0xff, 0x3c, 0x3f, 0x54, 0x75, 0xdc, 0x3e,
  0xa4, 0x76, 0xf2, 0xbd, 0xae, 0x26, 0x4a, 0x3e, 0x68, 0x45, 0x10, 0xbf,
  0x38, 0x74, 0x95, 0x3e, 0xf4, 0xdf, 0x19, 0xbe, 0xce, 0x51, 0x96, 0xbe,
  0x79, 0xb0, 0x93, 0x3e, 0x7d, 0x5a, 0xdb, 0x3e, 0x6a, 0x7e, 0x56, 0x3e,
  0x7d, 0x50, 0xcc, 0xbe, 0xb8, 0x43, 0x13, 0xbd, 0xc4, 0xe2, 0xa6, 0xbe,
  0x8a, 0xfc, 0x89, 0xbe, 0x17, 0xa0, 0x0a, 0x3e, 0x52, 0xdd, 0x86, 0xbf,
  0x4a, 0x97, 0x44, 0xbd, 0xe6, 0x15, 0x32, 0x3e, 0x5a, 0xa2, 0x0d, 0x3e,
  0x10, 0x41, 0xfe, 0x3e, 0x17, 0xc2, 0x7c, 0x3e, 0x60, 0xff, 0x2e, 0x3d,
  0x82, 0x1a, 0xf0, 0x3e, 0xf7, 0xd5, 0xb9, 0x3e, 0x83, 0x30, 0xe1, 0xbe,
  0xb4, 0x71, 0xb2, 0xbd, 0x78, 0xa5, 0xff, 0x3e, 0x0e, 0x86, 0x81, 0xbe,
  0x17, 0x0f, 0x55, 0xbe, 0xf2, 0x2c, 0x1a, 0x3e, 0xbe, 0x53, 0x74, 0x3e,
  0xe8, 0x60, 0x26, 0x3c, 0x9d, 0x0d, 0xa8, 0xbd, 0xb4, 0x9e, 0x94, 0xbe,
  0x4f, 0x39, 0x94, 0xbe, 0x7e, 0xf0, 0x96, 0xbd, 0xec, 0x3c, 0xd2, 0xbd,
  0xdb, 0x1a, 0xaf, 0x3e, 0x02, 0x91, 0x82, 0x3e, 0xca, 0x14, 0xcb, 0xbe,
  0xdf, 0x84, 0xa5, 0xbe, 0x44, 0x55, 0x99, 0xbe, 0x0a, 0xc7, 0x29, 0x3f,
  0x14, 0x2e, 0x04, 0xbe, 0x4d, 0xc9, 0xc8, 0xbe, 0xf0, 0x51, 0x43, 0x3d,
  0xef, 0x4a, 0xeb, 0x3e, 0xd9, 0xab, 0x1c, 0xbf, 0xc8, 0x12, 0x13, 0x3e,
  0x34, 0xb1, 0xfb, 0x3d, 0xa5, 0x1f, 0xc6, 0x3e, 0xde, 0x6d, 0x5a, 0xbd,
  0x9a, 0x71, 0x85, 0xbd, 0x40, 0x73, 0xed, 0x3b, 0xbd, 0xd7, 0x0b, 0x3e,
  0xfa, 0xcf, 0xb7, 0xbe, 0xbb, 0x45, 0xb2, 0xbe, 0x38, 0x70, 0x65, 0xbd,
  0x96, 0x4d, 0xc2, 0x3e, 0x62, 0x50, 0x95, 0xbe, 0x2c, 0x0d, 0xaf, 0x3d,
  0x52, 0x7d, 0x1a, 0xbe, 0x28, 0xc8, 0x0e, 0x3f, 0x52, 0xfc, 0x65, 0xbd,
  0x62, 0xd8, 0x2c, 0xbe, 0x86, 0x0c, 0x13, 0x3e, 0x8e, 0xe4, 0x8d, 0xbe,
  0x61, 0x20, 0xa3, 0x3e, 0x63, 0xd5, 0xaf, 0xbe, 0xa0, 0xad, 0xb1, 0xbc,
  0x72, 0x1a, 0x04, 0x3f, 0x53, 0x49, 0xcc, 0xbe, 0x81, 0xcb, 0xa1, 0xbe,
  0x24, 0xc6, 0x90, 0xbe, 0xde, 0x3f, 0x2a, 0xbb, 0x44, 0xb8, 0xeb, 0xbd,
  0x16, 0x9a, 0x6c, 0xbe, 0xd3, 0xc9, 0xd7, 0xbe, 0x01, 0x4b, 0x68, 0x3c,
  0x23, 0x8d, 0x50, 0xbf, 0x38, 0x2e, 0xf8, 0x3d, 0xf8, 0x06, 0x84, 0xbe,
  0x40, 0xab, 0xde, 0xbd, 0xa9, 0x1e, 0xb2, 0x3d, 0x06, 0x35, 0xdb, 0x3d,
  0x88, 0x60, 0x49, 0xbd, 0xc4, 0xf0, 0xdf, 0x3d, 0xc6, 0x15, 0x11, 0xbe,
  0x89, 0x30, 0x88, 0xbd, 0x00, 0xbb, 0xfc, 0xbb, 0xc3, 0xa7, 0x7f, 0xbe,
  0x80, 0xd5, 0x6f, 0xbb, 0x69, 0x2c, 0xa5, 0x3e, 0x9f, 0x0e, 0x83, 0x3e,
  0x9a, 0x6c, 0xdd, 0xbd, 0x73, 0x51, 0xba, 0xbe, 0xe8, 0x37, 0xa5, 0xbe,
  0x55, 0x7e, 0xb0, 0xbe, 0xd1, 0x0c, 0xd2, 0x3e, 0x2f, 0x1a, 0x8a, 0xbe,
  0xae, 0xf7, 0x49, 0x3e, 0xf0, 0xa8, 0xbf, 0xbe, 0x8f, 0x8f, 0x84, 0x3e,
  0x86, 0xae, 0x34, 0x3e, 0x8e, 0xf6, 0x98, 0x3e, 0xd0, 0xe2, 0x22, 0xbd,
  0xe5, 0x8e, 0xc6, 0xbe, 0x66, 0xfe, 0x74, 0x3e, 0xb8, 0x62, 0x8a, 0xbd,
  0xc4, 0x08, 0xa8, 0xbe, 0x96, 0xdc, 0x0c, 0x3f, 0xf4, 0x99, 0xb5, 0x3e,
  0x56, 0x15, 0xca, 0xbe, 0xc0, 0xbc, 0x94, 0xbd, 0xea, 0x74, 0x05, 0x3e,
  0xb5, 0x9a, 0xc4, 0x3e, 0x37, 0xf5, 0x99, 0xbe, 0x26, 0x92, 0x6a, 0x3e,
  0x82, 0x6b, 0x0b, 0x3f, 0x44, 0x43, 0x89, 0x3d, 0x01, 0x7f, 0x2a, 0xbe,
  0x01, 0xaf, 0xd4, 0x3e, 0xeb, 0x75, 0xd6, 0x3e, 0x39, 0xa8, 0xd1, 0xbe,
  0x8f, 0x4b, 0x83, 0x3e, 0x4a, 0x45, 0x59, 0x3e, 0x97, 0x73, 0x93, 0x3e,
  0xaf, 0x00, 0xb6, 0x3e, 0x05, 0x7b, 0x1d, 0xbe, 0x42, 0xc7, 0xa9, 0xbe,
  0xa9, 0xa3, 0xac, 0x3e, 0xd1, 0x73, 0xab, 0x3d, 0xf0, 0xba, 0xca, 0x3e,
  0x0c, 0x6c, 0x15, 0xbe, 0x29, 0xed, 0x3a, 0xbe, 0xca, 0xe2, 0x47, 0x3e,
  0x6a, 0x51, 0x67, 0xbe, 0x14, 0xdb, 0x1c, 0xbe, 0x97, 0xa9, 0xf3, 0x3d,
  0x20, 0x8a, 0x8f, 0xbc, 0xd8, 0x3e, 0xc0, 0xbe, 0xb9, 0xea, 0xd2, 0x3e,
  0xe7, 0xa3, 0x5e, 0x3e, 0x70, 0x3f, 0xaa, 0xbe, 0xdb, 0x30, 0xc1, 0xbe,
  0xca, 0xf4, 0x0f, 0x3e, 0x78, 0x6b, 0xe8, 0xbd, 0x54, 0x10, 0xd7, 0x3e,
  0xfb, 0x89, 0xa8, 0xbe, 0x0c, 0x65, 0x9f, 0x3d, 0xc3, 0x28, 0xe8, 0x3e,
  0xf8, 0xda, 0x7e, 0xbe, 0x96, 0x0b, 0xa1, 0xbd, 0x83, 0xa5, 0x9f, 0x3e,
  0x7e, 0xda, 0x1f, 0x3f, 0x80, 0xb6, 0x98, 0xbd, 0x16, 0xbb, 0xad, 0xbe,
  0xac, 0x35, 0xec, 0x3d, 0xe7, 0x2d, 0x0b, 0x3d, 0x5a, 0x3a, 0xbb, 0xbe,
  0x8b, 0x6f, 0xb1, 0xbe, 0x9e, 0x55, 0x18, 0x3e, 0x07, 0x79, 0xab, 0xbe,
  0x76, 0xaf, 0x28, 0xbc, 0xa5, 0x5f, 0x21, 0x3e, 0x0d, 0xd2, 0xc8, 0x3e,
  0x71, 0x92, 0xbe, 0x3e, 0x00, 0xbe, 0xa1, 0x3a, 0xaa, 0xe3, 0x6b, 0x3e,
  0x80, 0x89, 0xc6, 0x3c, 0xa1, 0x64, 0x55, 0x3e, 0x00, 0x2d, 0x31, 0x3d,
  0x2b, 0xc3, 0x9e, 0xbe, 0x04, 0x85, 0xf1, 0x3d, 0x46, 0xa5, 0x0f, 0x3e,
  0xbc, 0x94, 0x39, 0x3f, 0x31, 0x8f, 0xa4, 0x3e, 0xe8, 0xd0, 0xc1, 0xbe,
  0x7e, 0x88, 0xcc, 0xbe, 0x8f, 0x7b, 0x02, 0xbe, 0x06, 0xf3, 0xa3, 0x3e,
  0x7e, 0x7a, 0xae, 0xbe, 0xb5, 0xf0, 0xd5, 0xbe, 0x7a, 0x09, 0x02, 0xbe,
  0xbc, 0xca, 0x1f, 0x3e, 0x01, 0xdf, 0xd5, 0x3e, 0x8e, 0xd3, 0x9c, 0xbe,
  0x97, 0xc0, 0xaf, 0x3e, 0xa0, 0x09, 0xa4, 0xbd, 0xfd, 0x53, 0xba, 0x3e,
  0xe5, 0x63, 0x77, 0x3e, 0x88, 0x6a, 0xb8, 0xbd, 0xa2, 0x3f, 0x69, 0x3d,
  0x67, 0x62, 0xd7, 0xbe, 0x8a, 0x08, 0xb8, 0xbe, 0xe1, 0x29, 0xd8, 0x3e,
  0x52, 0xf4, 0xc1, 0xbe, 0xda, 0x80, 0x61, 0x3e, 0x8d, 0x1c, 0x22, 0x3f,
  0x2e, 0x84, 0x2f, 0x3e, 0x85, 0x95, 0x8b, 0xbe, 0x9e, 0x29, 0x13, 0x3e,
  0x03, 0x1f, 0xe1, 0x3e, 0x48, 0xd0, 0x43, 0xbe, 0x2e, 0x99, 0x44, 0x3e,
  0x00, 0x00, 0x06, 0x00, 0x08, 0x00, 0x04, 0x00, 0x06, 0x00, 0x00, 0x00,
  0x04, 0x00, 0x00, 0x00, 0x40, 0x00, 0x00, 0x00, 0xe4, 0xa3, 0xc3, 0x3e,
  0x2e, 0x68, 0xe3, 0x3e, 0xa9, 0x26, 0x0a, 0xbf, 0x94, 0xc9, 0x49, 0x3f,
  0x20, 0xf1, 0x23, 0xbf, 0xc5, 0xce, 0x00, 0x3f, 0xab, 0xb9, 0x35, 0xbf,
  0x1b, 0xb5, 0xbb, 0x3e, 0x3b, 0xe7, 0xa1, 0xbe, 0x42, 0x46, 0xed, 0x3d,
  0x3b, 0x36, 0x50, 0x3f, 0x71, 0x01, 0x72, 0x3e, 0x16, 0x93, 0x21, 0x3f,
  0xaa, 0xf7, 0xe3, 0xbe, 0x25, 0xc7, 0x80, 0x3e, 0x29, 0x21, 0x30, 0x3f,
  0x28, 0xfb, 0xff, 0xff, 0x2c, 0xfb, 0xff, 0xff, 0x0f, 0x00, 0x00, 0x00,
  0x4d, 0x4c, 0x49, 0x52, 0x20, 0x43, 0x6f, 0x6e, 0x76, 0x65, 0x72, 0x74,
  0x65, 0x64, 0x2e, 0x00, 0x01, 0x00, 0x00, 0x00, 0x14, 0x00, 0x00, 0x00,
  0x00, 0x00, 0x0e, 0x00, 0x18, 0x00, 0x14, 0x00, 0x10, 0x00, 0x0c, 0x00,
  0x08, 0x00, 0x04, 0x00, 0x0e, 0x00, 0x00, 0x00, 0x14, 0x00, 0x00, 0x00,
  0x1c, 0x00, 0x00, 0x00, 0xe8, 0x00, 0x00, 0x00, 0xec, 0x00, 0x00, 0x00,
  0xf0, 0x00, 0x00, 0x00, 0x04, 0x00, 0x00, 0x00, 0x6d, 0x61, 0x69, 0x6e,
  0x00, 0x00, 0x00, 0x00, 0x03, 0x00, 0x00, 0x00, 0x90, 0x00, 0x00, 0x00,
  0x48, 0x00, 0x00, 0x00, 0x04, 0x00, 0x00, 0x00, 0xce, 0xff, 0xff, 0xff,
  0x10, 0x00, 0x00, 0x00, 0x00, 0x00, 0x00, 0x08, 0x0c, 0x00, 0x00, 0x00,
  0x10, 0x00, 0x00, 0x00, 0xa4, 0xfb, 0xff, 0xff, 0x01, 0x00, 0x00, 0x00,
  0x09, 0x00, 0x00, 0x00, 0x03, 0x00, 0x00, 0x00, 0x08, 0x00, 0x00, 0x00,
  0x01, 0x00, 0x00, 0x00, 0x03, 0x00, 0x00, 0x00, 0x00, 0x00, 0x0e, 0x00,
  0x14, 0x00, 0x00, 0x00, 0x10, 0x00, 0x0c, 0x00, 0x0b, 0x00, 0x04, 0x00,
  0x0e, 0x00, 0x00, 0x00, 0x10, 0x00, 0x00, 0x00, 0x00, 0x00, 0x00, 0x08,
  0x10, 0x00, 0x00, 0x00, 0x14, 0x00, 0x00, 0x00, 0xba, 0xff, 0xff, 0xff,
  0x00, 0x00, 0x00, 0x01, 0x01, 0x00, 0x00, 0x00, 0x08, 0x00, 0x00, 0x00,
  0x03, 0x00, 0x00, 0x00, 0x07, 0x00, 0x00, 0x00, 0x02, 0x00, 0x00, 0x00,
  0x04, 0x00, 0x00, 0x00, 0x00, 0x00, 0x0e, 0x00, 0x16, 0x00, 0x00, 0x00,
  0x10, 0x00, 0x0c, 0x00, 0x0b, 0x00, 0x04, 0x00, 0x0e, 0x00, 0x00, 0x00,
  0x18, 0x00, 0x00, 0x00, 0x00, 0x00, 0x00, 0x08, 0x18, 0x00, 0x00, 0x00,
  0x1c, 0x00, 0x00, 0x00, 0x00, 0x00, 0x06, 0x00, 0x08, 0x00, 0x07, 0x00,
  0x06, 0x00, 0x00, 0x00, 0x00, 0x00, 0x00, 0x01, 0x01, 0x00, 0x00, 0x00,
  0x07, 0x00, 0x00, 0x00, 0x03, 0x00, 0x00, 0x00, 0x00, 0x00, 0x00, 0x00,
  0x06, 0x00, 0x00, 0x00, 0x05, 0x00, 0x00, 0x00, 0x01, 0x00, 0x00, 0x00,
  0x09, 0x00, 0x00, 0x00, 0x01, 0x00, 0x00, 0x00, 0x00, 0x00, 0x00, 0x00,
  0x0a, 0x00, 0x00, 0x00, 0x74, 0x03, 0x00, 0x00, 0x1c, 0x03, 0x00, 0x00,
  0xc4, 0x02, 0x00, 0x00, 0x88, 0x02, 0x00, 0x00, 0x4c, 0x02, 0x00, 0x00,
  0xf0, 0x01, 0x00, 0x00, 0xa0, 0x01, 0x00, 0x00, 0x00, 0x01, 0x00, 0x00,
  0x60, 0x00, 0x00, 0x00, 0x04, 0x00, 0x00, 0x00, 0xca, 0xfc, 0xff, 0xff,
  0x00, 0x00, 0x00, 0x01, 0x14, 0x00, 0x00, 0x00, 0x1c, 0x00, 0x00, 0x00,
  0x1c, 0x00, 0x00, 0x00, 0x0a, 0x00, 0x00, 0x00, 0x34, 0x00, 0x00, 0x00,
  0x02, 0x00, 0x00, 0x00, 0xff, 0xff, 0xff, 0xff, 0x01, 0x00, 0x00, 0x00,
  0xb4, 0xfc, 0xff, 0xff, 0x1b, 0x00, 0x00, 0x00, 0x53, 0x74, 0x61, 0x74,
  0x65, 0x66, 0x75, 0x6c, 0x50, 0x61, 0x72, 0x74, 0x69, 0x74, 0x69, 0x6f,
  0x6e, 0x65, 0x64, 0x43, 0x61, 0x6c, 0x6c, 0x5f, 0x31, 0x3a, 0x30, 0x00,
  0x02, 0x00, 0x00, 0x00, 0x01, 0x00, 0x00, 0x00, 0x01, 0x00, 0x00, 0x00,
  0x22, 0xfd, 0xff, 0xff, 0x00, 0x00, 0x00, 0x01, 0x14, 0x00, 0x00, 0x00,
  0x1c, 0x00, 0x00, 0x00, 0x1c, 0x00, 0x00, 0x00, 0x09, 0x00, 0x00, 0x00,
  0x78, 0x00, 0x00, 0x00, 0x02, 0x00, 0x00, 0x00, 0xff, 0xff, 0xff, 0xff,
  0x10, 0x00, 0x00, 0x00, 0x0c, 0xfd, 0xff, 0xff, 0x5e, 0x00, 0x00, 0x00,
  0x73, 0x65, 0x71, 0x75, 0x65, 0x6e, 0x74, 0x69, 0x61, 0x6c, 0x5f, 0x31,
  0x5f, 0x31, 0x2f, 0x64, 0x65, 0x6e, 0x73, 0x65, 0x5f, 0x33, 0x5f, 0x31,
  0x2f, 0x4d, 0x61, 0x74, 0x4d, 0x75, 0x6c, 0x3b, 0x73, 0x65, 0x71, 0x75,
  0x65, 0x6e, 0x74, 0x69, 0x61, 0x6c, 0x5f, 0x31, 0x5f, 0x31, 0x2f, 0x64,
  0x65, 0x6e, 0x73, 0x65, 0x5f, 0x33, 0x5f, 0x31, 0x2f, 0x52, 0x65, 0x6c,
  0x75, 0x3b, 0x73, 0x65, 0x71, 0x75, 0x65, 0x6e, 0x74, 0x69, 0x61, 0x6c,
  0x5f, 0x31, 0x5f, 0x31, 0x2f, 0x64, 0x65, 0x6e, 0x73, 0x65, 0x5f, 0x33,
  0x5f, 0x31, 0x2f, 0x42, 0x69, 0x61, 0x73, 0x41, 0x64, 0x64, 0x00, 0x00,
  0x02, 0x00, 0x00, 0x00, 0x01, 0x00, 0x00, 0x00, 0x10, 0x00, 0x00, 0x00,
  0xbe, 0xfd, 0xff, 0xff, 0x00, 0x00, 0x00, 0x01, 0x14, 0x00, 0x00, 0x00,
  0x1c, 0x00, 0x00, 0x00, 0x1c, 0x00, 0x00, 0x00, 0x08, 0x00, 0x00, 0x00,
  0x78, 0x00, 0x00, 0x00, 0x02, 0x00, 0x00, 0x00, 0xff, 0xff, 0xff, 0xff,
  0x10, 0x00, 0x00, 0x00, 0xa8, 0xfd, 0xff, 0xff, 0x5e, 0x00, 0x00, 0x00,
  0x73, 0x65, 0x71, 0x75, 0x65, 0x6e, 0x74, 0x69, 0x61, 0x6c, 0x5f, 0x31,
  0x5f, 0x31, 0x2f, 0x64, 0x65, 0x6e, 0x73, 0x65, 0x5f, 0x32, 0x5f, 0x31,
  0x2f, 0x4d, 0x61, 0x74, 0x4d, 0x75, 0x6c, 0x3b, 0x73, 0x65, 0x71, 0x75,
  0x65, 0x6e, 0x74, 0x69, 0x61, 0x6c, 0x5f, 0x31, 0x5f, 0x31, 0x2f, 0x64,
  0x65, 0x6e, 0x73, 0x65, 0x5f, 0x32, 0x5f, 0x31, 0x2f, 0x52, 0x65, 0x6c,
  0x75, 0x3b, 0x73, 0x65, 0x71, 0x75, 0x65, 0x6e, 0x74, 0x69, 0x61, 0x6c,
  0x5f, 0x31, 0x5f, 0x31, 0x2f, 0x64, 0x65, 0x6e, 0x73, 0x65, 0x5f, 0x32,
  0x5f, 0x31, 0x2f, 0x42, 0x69, 0x61, 0x73, 0x41, 0x64, 0x64, 0x00, 0x00,
  0x02, 0x00, 0x00, 0x00, 0x01, 0x00, 0x00, 0x00, 0x10, 0x00, 0x00, 0x00,
  0xae, 0xfe, 0xff, 0xff, 0x00, 0x00, 0x00, 0x01, 0x10, 0x00, 0x00, 0x00,
  0x10, 0x00, 0x00, 0x00, 0x07, 0x00, 0x00, 0x00, 0x2c, 0x00, 0x00, 0x00,
  0x34, 0xfe, 0xff, 0xff, 0x1f, 0x00, 0x00, 0x00, 0x73, 0x65, 0x71, 0x75,
  0x65, 0x6e, 0x74, 0x69, 0x61, 0x6c, 0x5f, 0x31, 0x5f, 0x31, 0x2f, 0x64,
  0x65, 0x6e, 0x73, 0x65, 0x5f, 0x32, 0x5f, 0x31, 0x2f, 0x4d, 0x61, 0x74,
  0x4d, 0x75, 0x6c, 0x00, 0x02, 0x00, 0x00, 0x00, 0x10, 0x00, 0x00, 0x00,
  0x01, 0x00, 0x00, 0x00, 0xfa, 0xfe, 0xff, 0xff, 0x00, 0x00, 0x00, 0x01,
  0x10, 0x00, 0x00, 0x00, 0x10, 0x00, 0x00, 0x00, 0x06, 0x00, 0x00, 0x00,
  0x3c, 0x00, 0x00, 0x00, 0x80, 0xfe, 0xff, 0xff, 0x2f, 0x00, 0x00, 0x00,
  0x73, 0x65, 0x71, 0x75, 0x65, 0x6e, 0x74, 0x69, 0x61, 0x6c, 0x5f, 0x31,
  0x5f, 0x31, 0x2f, 0x64, 0x65, 0x6e, 0x73, 0x65, 0x5f, 0x32, 0x5f, 0x31,
  0x2f, 0x42, 0x69, 0x61, 0x73, 0x41, 0x64, 0x64, 0x2f, 0x52, 0x65, 0x61,
  0x64, 0x56, 0x61, 0x72, 0x69, 0x61, 0x62, 0x6c, 0x65, 0x4f, 0x70, 0x00,
  0x01, 0x00, 0x00, 0x00, 0x10, 0x00, 0x00, 0x00, 0x52, 0xff, 0xff, 0xff,
  0x00, 0x00, 0x00, 0x01, 0x10, 0x00, 0x00, 0x00, 0x10, 0x00, 0x00, 0x00,
  0x05, 0x00, 0x00, 0x00, 0x1c, 0x00, 0x00, 0x00, 0xd8, 0xfe, 0xff, 0xff,
  0x0f, 0x00, 0x00, 0x00, 0x61, 0x72, 0x69, 0x74, 0x68, 0x2e, 0x63, 0x6f,
  0x6e, 0x73, 0x74, 0x61, 0x6e, 0x74, 0x33, 0x00, 0x01, 0x00, 0x00, 0x00,
  0x10, 0x00, 0x00, 0x00, 0x8a, 0xff, 0xff, 0xff, 0x00, 0x00, 0x00, 0x01,
  0x10, 0x00, 0x00, 0x00, 0x10, 0x00, 0x00, 0x00, 0x04, 0x00, 0x00, 0x00,
  0x1c, 0x00, 0x00, 0x00, 0x10, 0xff, 0xff, 0xff, 0x0f, 0x00, 0x00, 0x00,
  0x61, 0x72, 0x69, 0x74, 0x68, 0x2e, 0x63, 0x6f, 0x6e, 0x73, 0x74, 0x61,
  0x6e, 0x74, 0x32, 0x00, 0x01, 0x00, 0x00, 0x00, 0x01, 0x00, 0x00, 0x00,
  0xc2, 0xff, 0xff, 0xff, 0x00, 0x00, 0x00, 0x01, 0x10, 0x00, 0x00, 0x00,
  0x10, 0x00, 0x00, 0x00, 0x03, 0x00, 0x00, 0x00, 0x1c, 0x00, 0x00, 0x00,
  0x48, 0xff, 0xff, 0xff, 0x0f, 0x00, 0x00, 0x00, 0x61, 0x72, 0x69, 0x74,
  0x68, 0x2e, 0x63, 0x6f, 0x6e, 0x73, 0x74, 0x61, 0x6e, 0x74, 0x31, 0x00,
  0x02, 0x00, 0x00, 0x00, 0x10, 0x00, 0x00, 0x00, 0x10, 0x00, 0x00, 0x00,
  0x00, 0x00, 0x16, 0x00, 0x18, 0x00, 0x14, 0x00, 0x00, 0x00, 0x10, 0x00,
  0x0c, 0x00, 0x08, 0x00, 0x00, 0x00, 0x00, 0x00, 0x00, 0x00, 0x07, 0x00,
  0x16, 0x00, 0x00, 0x00, 0x00, 0x00, 0x00, 0x01, 0x10, 0x00, 0x00, 0x00,
  0x10, 0x00, 0x00, 0x00, 0x02, 0x00, 0x00, 0x00, 0x1c, 0x00, 0x00, 0x00,
  0x9c, 0xff, 0xff, 0xff, 0x0e, 0x00, 0x00, 0x00, 0x61, 0x72, 0x69, 0x74,
  0x68, 0x2e, 0x63, 0x6f, 0x6e, 0x73, 0x74, 0x61, 0x6e, 0x74, 0x00, 0x00,
  0x02, 0x00, 0x00, 0x00, 0x01, 0x00, 0x00, 0x00, 0x10, 0x00, 0x00, 0x00,
  0x00, 0x00, 0x16, 0x00, 0x1c, 0x00, 0x18, 0x00, 0x00, 0x00, 0x14, 0x00,
  0x10, 0x00, 0x0c, 0x00, 0x00, 0x00, 0x00, 0x00, 0x08, 0x00, 0x07, 0x00,
  0x16, 0x00, 0x00, 0x00, 0x00, 0x00, 0x00, 0x01, 0x14, 0x00, 0x00, 0x00,
  0x20, 0x00, 0x00, 0x00, 0x20, 0x00, 0x00, 0x00, 0x01, 0x00, 0x00, 0x00,
  0x3c, 0x00, 0x00, 0x00, 0x02, 0x00, 0x00, 0x00, 0xff, 0xff, 0xff, 0xff,
  0x01, 0x00, 0x00, 0x00, 0x04, 0x00, 0x04, 0x00, 0x04, 0x00, 0x00, 0x00,
  0x1f, 0x00, 0x00, 0x00, 0x73, 0x65, 0x72, 0x76, 0x69, 0x6e, 0x67, 0x5f,
  0x64, 0x65, 0x66, 0x61, 0x75, 0x6c, 0x74, 0x5f, 0x69, 0x6e, 0x70, 0x75,
  0x74, 0x5f, 0x6c, 0x61, 0x79, 0x65, 0x72, 0x5f, 0x31, 0x3a, 0x30, 0x00,
  0x02, 0x00, 0x00, 0x00, 0x01, 0x00, 0x00, 0x00, 0x01, 0x00, 0x00, 0x00,
  0x01, 0x00, 0x00, 0x00, 0x10, 0x00, 0x00, 0x00, 0x0c, 0x00, 0x0c, 0x00,
  0x0b, 0x00, 0x00, 0x00, 0x00, 0x00, 0x04, 0x00, 0x0c, 0x00, 0x00, 0x00,
  0x09, 0x00, 0x00, 0x00, 0x00, 0x00, 0x00, 0x09
};
unsigned int models_model_no_quant_tflite_len = 3176;
